00
00
04
00
04
00
04
00
00
00
00
04
00
04
00
04
FF
03
FE
05
05
05
05
05
05
06
06
06
06
06
06
07
07
07
07
07
08
08
08
08
09
09
09
0A
0A
0A
0A
0B
0B
0B
0C
0C
0C
0D
0D
0E
0E
0E
0F
0F
10
10
11
11
12
12
13
13
14
14
15
16
16
17
18
18
19
1A
1A
1B
1C
1D
1E
1E
1F
20
21
22
23
24
25
26
27
28
29
2A
2B
2C
2D
2F
30
31
32
33
35
36
37
39
3A
3C
3D
3E
40
41
43
45
46
48
49
4B
4D
4E
50
52
54
55
57
59
5B
5D
5E
60
62
64
66
68
6A
6C
6E
70
72
74
76
78
7A
7C
7E
80
81
83
85
87
89
8B
8D
8F
91
93
95
97
99
9B
9D
9F
A1
A2
A4
A6
A8
AA
AB
AD
AF
B1
B2
B4
B6
B7
B9
BA
BC
BE
BF
C1
C2
C3
C5
C6
C8
C9
CA
CC
CD
CE
CF
D0
D2
D3
D4
D5
D6
D7
D8
D9
DA
DB
DC
DD
DE
DF
E0
E1
E1
E2
E3
E4
E5
E5
E6
E7
E7
E8
E9
E9
EA
EB
EB
EC
EC
ED
ED
EE
EE
EF
EF
F0
F0
F1
F1
F1
F2
F2
F3
F3
F3
F4
F4
F4
F5
F5
F5
F5
F6
F6
F6
F7
F7
F7
F7
F8
F8
F8
F8
F8
F9
F9
F9
F9
F9
F9
FA
FA
FA
FA
FA
